the 9154
to 8551
I 5281
you 4288
of 3777
a 3688
in 3358
is 3292
and 3100
he 2893
not 2209
will 2199
that 2165
have 1987
it 1978
was 1773
do 1686
be 1614
are 1522
for 1389
. 1344
s 1318
ed 1294
his 1239
they 1219
on 1208
ing 1201
s@@ 1147
we 1030
want 1029
The 1001
with 996
something 989
me 982
this 975
there 958
He 955
don't 910
? 898
at 896
There 892
c@@ 887
what 884
es 884
d@@ 852
know 837
t@@ 826
re@@ 778
l@@ 757
my 755
him 738
e. 725
y 724
your 724
as 722
You 715
like 696
can 692
er 692
one 690
did 655
had 652
but 649
or 645
who 637
p@@ 636
up 634
go 627
t 620
m@@ 617
s. 613
all 608
about 608
has 600
i@@ 600
g@@ 590
e@@ 580
f@@ 579
if 566
when 564
an 556
ar@@ 553
people 551
think 542
time 539
r@@ 538
by 536
in@@ 528
so 527
some 525
from 521
no 520
would 514
If 501
get 499
er@@ 491
her 485
o@@ 466
We 466
us 466
were 461
ly 453
them 452
se@@ 452
good 446
or@@ 442
their 441
tell 435
why 429
al@@ 424
It 423
as@@ 420
ers 419
it@@ 416
b@@ 409
an@@ 406
's 405
S@@ 404
v@@ 401
donï¿½t 400
at@@ 398
ro@@ 396
un@@ 395
th@@ 395
work 393
see 387
take 385
st@@ 385
a@@ 383
many 380
Why 379
en@@ 378
ic@@ 375
very 375
didn't 370
al 370
h@@ 367
on@@ 364
how 360
give 360
le 357
sh@@ 356
be@@ 355
feel 354
ts 348
is@@ 348
ur@@ 346
w@@ 345
I'm 345
Mary 343
y@@ 342
de@@ 341
Do 340
le@@ 340
said 339
con@@ 338
te@@ 336
can't 332
e 331
out 330
t. 330
God 330
need 327
come 327
tr@@ 326
because 324
been 324
n@@ 322
say 322
k@@ 320
never 319
she 318
help 317
for@@ 316
ate 315
ac@@ 315
our 315
going 312
y. 311
el@@ 310
ent 309
ation 300
M@@ 300
ent@@ 298
G@@ 295
us@@ 295
could 294
A@@ 290
should 289
u@@ 285
po@@ 285
more 282
m 281
it. 279
day 279
In 279
B@@ 278
love 276
n 271
we@@ 271
d. 269
id@@ 266
ing. 263
C@@ 263
d 260
T@@ 260
They 259
able 256
ad@@ 254
ho@@ 253
much 252
does 248
other 248
When 247
-@@ 246
before 242
things 242
What 242
where 241
co@@ 239
way 239
H@@ 238
told 237
ab@@ 236
pre@@ 236
am 235
find 233
lo@@ 231
no@@ 230
il@@ 226
D@@ 224
ed. 224
money 223
ex@@ 222
mo@@ 222
ve 221
ine 220
you. 220
L@@ 219
ul@@ 218
ir@@ 217
make 217
e? 217
R@@ 215
es. 215
em@@ 215
ice 214
P@@ 213
dis@@ 212
per@@ 211
i 210
ar 209
ch@@ 206
bo@@ 204
here 204
doesn't 203
lot 203
am@@ 202
ig@@ 202
used 202
even 202
ity 201
Nkusi 201
er. 200
ne@@ 200
pr@@ 200
also 200
he@@ 199
those 199
wor@@ 198
man 198
th 197
than 196
ion 195
This 194
W@@ 194
ask 192
ated 192
do. 192
op@@ 190
im@@ 190
after 189
pro@@ 189
k. 189
ap@@ 188
How 188
felt 188
k 187
ry 187
king 187
long 187
ut@@ 187
use 186
went 186
just 185
so@@ 184
must 184
K@@ 183
res@@ 182
I'll 182
asked 182
life 182
him. 180
Don't 180
anything 179
may 178
mis@@ 178
qu@@ 178
now 177
nothing 176
Paul 176
wanted 175
end 175
x@@ 175
E@@ 174
par@@ 172
ted 172
ol@@ 171
really 170
to@@ 169
me@@ 169
sure 168
only 167
N@@ 166
en 166
go@@ 166
F@@ 165
ans 165
two 163
home 163
ies 163
Some 163
ag@@ 163
do@@ 162
thing 162
always 162
made 162
ev@@ 161
fe@@ 160
buy 160
p 159
thought 159
came 159
any 158
words 158
acc@@ 157
et@@ 157
new 157
gave 156
sp@@ 156
pl@@ 155
ever 154
first 154
ary 153
these 153
es@@ 151
ings 151
next 151
av@@ 151
right 151
ep@@ 150
heard 149
l 149
ill@@ 149
time. 149
understand 149
ions 149
eat 148
doing 147
Tom 147
ds 146
gu@@ 146
and@@ 145
O@@ 145
com@@ 145
h 145
ri@@ 144
talk 144
house 144
di@@ 143
ear@@ 143
sed 143
well 143
est@@ 142
ence 142
gr@@ 141
its 141
And 141
ting 140
saw 138
which 138
ter 137
cl@@ 137
ty 137
ks 137
done 137
w 136
car@@ 136
same 136
des@@ 136
look 135
att@@ 134
J@@ 134
ents 134
given 134
enough 133
ing@@ 132
great 132
problem 132
ion@@ 132
se 131
school 131
without 130
children 130
li@@ 130
here. 130
world 130
into 129
put 129
ll@@ 129
cr@@ 129
you? 129
me. 128
ra@@ 127
such 127
ge 127
ure 127
says 127
ned 126
bad 126
Is 126
ise 125
ment 125
ang@@ 125
: 124
pe@@ 123
wi@@ 123
la@@ 123
last 122
back 122
old 122
ness 122
ws 121
My 121
'@@ 121
let 121
et 121
ue 121
As 120
ct@@ 120
ci@@ 120
g 119
No 118
ce 118
Ndimbati 118
ti@@ 118
ion. 118
still 118
ld 118
dr@@ 118
too 118
advice 118
j@@ 117
there. 117
el 117
om@@ 117
est 116
age 116
und@@ 116
others 116
live 115
x 115
st 115
ors 115
sho@@ 115
show 114
ll 114
ked 114
over 114
id 114
ou@@ 113
called 113
ance 112
up@@ 112
end@@ 112
ive 112
water 112
until 111
mon@@ 111
child 111
ver@@ 111
ised 110
ad 110
hope 110
th. 110
try 109
soon 109
if@@ 109
ide 108
en. 108
His 108
better 108
tomorrow 107
place 107
mar@@ 107
day. 107
vi@@ 107
Rwanda 107
o 106
igh@@ 106
ind@@ 106
That 106
person 106
hard 105
A 105
s? 105
car 105
! 105
So 105
best 105
another 105
Christ 105
it's 104
str@@ 104
sing 104
ake 104
different 104
um@@ 103
il 103
call 103
clo@@ 103
aking 103
ant 103
on. 103
night 103
found 103
ain 103
comp@@ 103
down 102
war@@ 102
ef@@ 102
wh@@ 102
else 102
word 102
; 102
something. 101
left 101
someone 101
Can 100
ish@@ 100
wants 100
ib@@ 100
ha@@ 99
took 99
Y@@ 99
ered 99
ug@@ 99
ed@@ 99
ay 99
bre@@ 98
gro@@ 98
comm@@ 98
mother 98
ris@@ 98
pres@@ 98
imp@@ 98
believe 98
days 97
son 97
U@@ 96
three 96
years 96
ay@@ 96
inv@@ 96
care 96
bring 96
ter@@ 96
sa@@ 95
then 95
tre@@ 95
food 95
every 94
ning 94
less 94
job 94
act@@ 94
happened 94
feel@@ 94
tic@@ 93
gre@@ 93
cre@@ 93
fa@@ 92
got 92
father 92
wrong 92
read 92
up. 91
ob@@ 91
ere@@ 91
being 90
ct 90
oo@@ 90
ce@@ 90
it? 90
room 89
tur@@ 89
spe@@ 89
makes 89
hear 89
br@@ 89
times 89
family 89
She 88
often 88
mat@@ 88
foo@@ 88
ch 88
wa@@ 87
le. 87
ess 87
ï¿½s 87
anyone 87
important 87
truth 87
ious 87
little 86
everything 86
bir@@ 86
keep 85
pas@@ 85
ast 85
change 85
happen@@ 85
few 85
nat@@ 85
ying 84
ir 84
afraid 84
ic 84
y? 84
ser@@ 84
ak@@ 83
pay 83
wn 83
ud@@ 83
cted 83
ous 83
the@@ 83
hear@@ 82
men 82
ved 82
sal@@ 82
continue 82
Mar@@ 82
b 82
immediately 82
everyone 82
iv@@ 81
through 81
any@@ 81
int@@ 81
power 81
knew 81
early 80
stud@@ 80
today. 80
speak 80
comes 80
ite 80
money. 80
remember 80
name 80
young 79
si@@ 79
bur@@ 79
her. 78
bro@@ 78
known 78
bu@@ 78
book 77
us. 77
reason 77
woman 76
fr@@ 76
che@@ 76
big 76
man@@ 75
work. 75
set 75
stop 75
alone. 75
min@@ 75
plan 75
body 75
each 75
problems 75
anc@@ 75
that. 75
Jesus 75
az@@ 74
ly. 74
ident 74
ful 74
girl 74
didnï¿½t 74
drink 74
them. 73
ref@@ 73
et. 73
meet 73
rain@@ 73
ers. 73
Something 73
les 73
id. 73
ul 73
ught 72
ish 72
ind 72
ns 72
ent. 72
possible 72
answer 72
Ch@@ 72
wat@@ 72
return 72
while 72
All 71
Please 71
bl@@ 71
again 71
week@@ 70
now. 70
Did 70
char@@ 70
play 70
jo@@ 70
ment@@ 70
ities 70
play@@ 69
f 69
leave 69
most 69
ele@@ 69
heart 69
ses 69
war 69
own 69
cha@@ 68
col@@ 68
fl@@ 68
difficult 68
won't 68
forget 68
sleep 68
ther@@ 68
eat@@ 68
ace 68
ones 68
ction 68
road 68
special 68
ugh@@ 68
start 67
happy 67
les@@ 67
fo@@ 67
bas@@ 67
friends 67
lear@@ 67
fir@@ 67
ep 67
For 67
students 66
hur@@ 66
way. 66
knows 66
sol@@ 66
year 66
o. 66
en't 66
del@@ 66
country 66
text 66
But 66
ight 65
yo@@ 65
It's 65
har@@ 65
hand@@ 65
tal@@ 65
information 65
ten 65
alone 65
sin@@ 65
faith 65
stay 64
a. 64
ther 64
ight. 64
cont@@ 64
side 64
full 64
Are 64
worship 64
parents 63
lost 63
n. 63
vo@@ 63
chang@@ 63
expe@@ 63
friend 63
boo@@ 63
hav@@ 63
books 63
loves 63
sent@@ 63
death 62
fin@@ 62
can@@ 62
comple@@ 62
ca@@ 62
party 62
day@@ 62
idea 62
home@@ 62
couldn't 62
study 62
u 62
af@@ 62
ons 62
learn 61
al. 61
rep@@ 61
ened 61
ck 61
je@@ 61
One 61
hon@@ 61
lat@@ 61
teach@@ 61
cro@@ 61
iz@@ 61
today 61
cyilima 61
morning. 60
happen 60
cour@@ 60
looking 60
ood 60
together 60
ter. 60
ready 60
That's 60
case 60
ach@@ 60
boy 60
follow 60
train 60
.@@ 60
true 60
air@@ 59
morning 59
rest@@ 59
writ@@ 59
brought 59
thir@@ 59
ack 59
eas@@ 59
cho@@ 59
sur@@ 59
ied 59
your@@ 59
ame 59
oes 59
one. 58
again. 58
te 58
ver 58
her@@ 58
bought 58
plan@@ 58
Be@@ 58
ible 58
uth 58
seems 58
val@@ 58
women 58
questions 58
ended 57
phone 57
stand 57
dec@@ 57
self 57
sis@@ 57
vers@@ 57
tried 57
sleep@@ 57
Will 57
sid@@ 57
n't 57
coun@@ 57
requ@@ 57
rem@@ 57
ain@@ 57
ely 57
gar@@ 57
eating 57
ta@@ 57
advice. 57
em 57
ign@@ 57
Byambo 57
Lord 57
between 56
visit 56
ple@@ 56
bus@@ 56
heal@@ 56
als 56
needed 56
pub@@ 56
leav@@ 55
thro@@ 55
relat@@ 55
giv@@ 55
lead@@ 55
well. 55
vis@@ 55
caref@@ 55
ars 55
ndimbati 55
dic@@ 55
rel@@ 55
away 55
heav@@ 55
Ex@@ 55
help. 55
uses 54
or. 54
ally 54
V@@ 54
takes 54
ing? 54
week 54
ful@@ 54
out@@ 54
ty@@ 54
wish 54
spend 54
includ@@ 54
fight 54
ship 54
wake 53
medic@@ 53
appe@@ 53
happen. 53
rain 53
Let 53
ru@@ 53
pic@@ 53
to. 53
mount@@ 53
both 53
tor@@ 53
prom@@ 53
know. 53
nam@@ 53
don@@ 53
agree 53
five 53
liv@@ 53
cur@@ 53
gi@@ 53
ip@@ 52
und 52
late 52
ained 52
around 52
cor@@ 52
pris@@ 52
sig@@ 52
himself 52
secre@@ 52
against 52
John 52
ached 52
wer@@ 52
here? 52
loved 52
tion 52
angry 51
adv@@ 51
wait 51
Chris@@ 51
year@@ 51
started 51
suc@@ 51
ually 51
help@@ 51
ice. 51
human 51
se. 51
work@@ 51
born 51
plac@@ 51
ized 51
story 51
Here 51
near 51
light 51
trav@@ 51
though 51
ken 51
low 51
self@@ 51
wonder 51
waiting 50
ating 50
eng@@ 50
goo@@ 50
thin@@ 50
out. 50
achi@@ 50
prov@@ 50
fall 50
killed 50
ia 50
temp@@ 50
At 50
I@@ 50
ous@@ 50
please 49
brother 49
night. 49
l. 49
serv@@ 49
beautiful 49
talking 49
ouldn't 49
far@@ 49
ight@@ 49
face 49
needs 49
finish 49
ines 49
expl@@ 49
cal@@ 49
ther. 49
respe@@ 49
might 49
ot@@ 49
Rukara 49
Rwandans 49
matter 48
erc@@ 48
anet 48
Wh@@ 48
lis@@ 48
tomorrow. 48
hours 48
cannot 48
ship@@ 48
Because 48
girls 48
cul@@ 48
ld@@ 48
heaven 48
goes 47
room. 47
Ho@@ 47
ong@@ 47
rive 47
ton@@ 47
later 47
that's 47
ort 47
off@@ 47
add@@ 47
ist 47
den@@ 47
sit@@ 47
led 47
four 47
countr@@ 47
let@@ 47
strong 47
ry. 47
allow 47
meeting 47
Rwandan 47
animals 47
phe@@ 47
ph@@ 46
ped 46
this. 46
ets 46
drin@@ 46
front 46
Every@@ 46
cus@@ 46
ke@@ 46
began 46
during 46
gif@@ 46
log@@ 46
read@@ 46
produc@@ 46
hurt 46
chance 46
ants 46
understand@@ 46
ains 46
church 46
ach 46
mind 46
' 45
reach 45
tru@@ 45
over@@ 45
kind 45
least 45
famil@@ 45
became 45
taken 45
cit@@ 45
flow@@ 45
gl@@ 45
wing 45
longer 45
wrong. 45
ional 45
say. 45
sent 45
you're 45
lives 45
ences 45
auth@@ 45
Loo@@ 45
ches 45
law 45
small 44
woke 44
wind@@ 44
pol@@ 44
seem 44
clothes 44
ual 44
Let's 44
stand@@ 44
ions. 44
ut 44
remo@@ 44
ill 44
ture 44
star@@ 44
wan@@ 44
under 44
hand 44
exper@@ 44
sion 44
become 44
wife 44
looks 44
age. 44
already 44
people. 44
ow@@ 44
interest@@ 44
tired 44
know@@ 44
re 44
apost@@ 44
history 44
gospel 44
cent@@ 43
ation. 43
pi@@ 43
conf@@ 43
clean 43
speak@@ 43
Now 43
working 43
allowed 43
stre@@ 43
eter@@ 43
stay@@ 43
emb@@ 43
ust 43
head@@ 43
ily 43
ore 43
high 43
den 43
ends 43
met 43
retur@@ 43
tle 43
happ@@ 43
coo@@ 43
letter 43
ased 43
what@@ 43
explain 43
enem@@ 43
act 43
Spirit 43
teacher 42
large 42
ain. 42
akes 42
ban@@ 42
cold 42
stor@@ 42
since 42
tim@@ 42
thing. 42
Who 42
all. 42
dre@@ 42
car. 42
orrow 42
oth@@ 42
fi@@ 42
wond@@ 42
w. 42
ording 42
Even 42
saying 42
written 42
eg@@ 42
kill@@ 42
People 41
head 41
ba@@ 41
sitting 41
off 41
ner 41
school. 41
amaz@@ 41
asle@@ 41
wal@@ 41
hote@@ 41
fac@@ 41
mid@@ 41
tells 41
ch. 41
ept 41
chil@@ 41
gener@@ 41
exam@@ 41
ight? 41
than@@ 41
ition 41
house. 41
city 41
arrived 41
mil@@ 41
avo@@ 41
follow@@ 41
incre@@ 41
pose 41
stead 41
struc@@ 41
mean 41
ire 41
Mary. 41
bat@@ 41
ook 41
write 41
using 41
sup@@ 41
ings. 41
obe@@ 41
gs 41
After 40
surpr@@ 40
mor@@ 40
married 40
Nothing 40
every@@ 40
coming 40
concer@@ 40
boys 40
wrote 40
agre@@ 40
continued 40
ical 40
point 40
inter@@ 40
expensive 40
ters 40
mus@@ 40
compl@@ 40
t? 40
them@@ 40
gives 40
yet 40
ives 40
God. 40
number 39
grou@@ 39
doctor 39
grew 39
dog 39
weather 39
fru@@ 39
ices 39
ail@@ 39
ink@@ 39
ub@@ 39
short 39
go. 39
Th@@ 39
sav@@ 39
ase 39
dar@@ 39
lose 39
win 39
choose 39
prote@@ 39
uc@@ 39
der 39
sor@@ 39
far 39
ried 39
milk 39
opportun@@ 39
ma@@ 39
mean@@ 39
ss 39
bread 39
cap@@ 39
kind@@ 39
reas@@ 39
righ@@ 39
command@@ 39
Christi@@ 39
wever 39
fast 38
protect 38
ds. 38
ine. 38
afterno@@ 38
colle@@ 38
showed 38
aining 38
quest@@ 38
living 38
coffee 38
ny@@ 38
did@@ 38
Peter 38
equ@@ 38
appro@@ 38
save 38
free 38
ane 38
ong 38
rest 38
popul@@ 38
cause 38
stupid 38
son@@ 38
likes 38
eno@@ 38
pun@@ 38
doub@@ 38
God's 38
clas@@ 37
ash@@ 37
fore@@ 37
language 37
From 37
though@@ 37
problem. 37
pen 37
walk 37
United 37
ey@@ 37
feeling 37
watch 37
lik@@ 37
pe 37
su@@ 37
To 37
ement 37
ering 37
red 37
chose 37
sick 37
ick@@ 37
sit 37
easy 37
twent@@ 37
second 37
Com@@ 37
sear@@ 37
accept 37
cam@@ 37
ica 37
ah 37
friends. 37
news 37
y's 37
some@@ 37
thers 37
pain 37
These 37
ust@@ 37
eat. 37
bed 36
looked 36
tab@@ 36
even@@ 36
decis@@ 36
works 36
Pr@@ 36
ord@@ 36
nice 36
bac@@ 36
'll 36
home. 36
all@@ 36
exc@@ 36
minut@@ 36
fire 36
pet@@ 36
hor@@ 36
ms 36
emp@@ 36
sk@@ 36
river@@ 36
trust 36
buil@@ 36
eth 36
Many 36
French 36
um 36
daugh@@ 36
point@@ 36
pati@@ 36
necess@@ 36
prev@@ 36
say@@ 36
educ@@ 36
ished 36
causes 36
drugs 36
peace 36
courage 35
pes 35
seen 35
worry 35
party. 35
iness 35
Although 35
grabbed 35
hospit@@ 35
smok@@ 35
pap@@ 35
To@@ 35
at. 35
world. 35
Where 35
wise 35
call@@ 35
neigh@@ 35
r 35
exp@@ 35
gra@@ 35
Se@@ 35
glas@@ 35
ching 35
do? 35
ideas 35
spoke 35
month 35
culture 35
ery 35
form@@ 35
doesnï¿½t 35
Donï¿½t 35
me? 35
ention 35
ress 35
pri@@ 35
fut@@ 35
st. 34
playing 34
thousand 34
ath@@ 34
cc@@ 34
ide@@ 34
low@@ 34
hair 34
white 34
sm@@ 34
music 34
ners 34
interesting 34
Japan@@ 34
Your 34
Je@@ 34
school@@ 34
hab@@ 34
ric@@ 34
brid@@ 34
rev@@ 34
English 34
eve 34
wear 34
cts 34
kill 34
ages 34
mas@@ 34
ations 34
pa@@ 34
develop@@ 34
ese 34
fun@@ 34
Is@@ 34
song@@ 34
hung@@ 34
Wor@@ 34
ant@@ 34
eb@@ 34
message 34
won 34
example 34
Holy 34
lic 34
hero 34
certain 34
commun@@ 34
rules 34
especially 34
han@@ 33
Some@@ 33
coffe@@ 33
Mr. 33
ort@@ 33
miss 33
friend@@ 33
ize 33
decided 33
ws. 33
kid@@ 33
things. 33
close 33
part 33
job. 33
ste@@ 33
pho@@ 33
wel@@ 33
bab@@ 33
issu@@ 33
ted. 33
following 33
ject 33
meat 33
effor@@ 33
ence. 33
rather 33
vered 33
die 33
adi@@ 33
life. 33
streng@@ 33
gone 33
listen 33
ial 33
ick 33
ending 33
sl@@ 33
uni@@ 33
nes@@ 33
mentioned 33
dom 33
part@@ 33
ess@@ 33
ys 33
ens 33
tat@@ 33
ah@@ 33
ory 33
The@@ 33
believers 33
era 33
hat@@ 33
catch 32
my@@ 32
trying 32
ign 32
rying 32
top 32
you'll 32
anger 32
p.m. 32
ts. 32
ven 32
ad. 32
Stat@@ 32
bet@@ 32
ath 32
tures 32
ming 32
nor@@ 32
w? 32
business 32
blood 32
ush@@ 32
ies. 32
Amer@@ 32
ls 32
that@@ 32
dest@@ 32
ks. 32
beh@@ 32
Mo@@ 32
parent@@ 32
begin@@ 32
mind@@ 32
refused 32
yesterday 32
aybe 32
turn 32
io@@ 32
ability 32
ball 32
win@@ 32
order 32
courag@@ 32
fell 32
riv@@ 32
lived 32
finished 32
expres@@ 32
fect 32
solve 32
dark 32
building 32
ified 32
responsibil@@ 32
shoes 32
land 32
names 32
fact 32
tiv@@ 32
hundred 32
gold 32
kingdom 32
rul@@ 32
An@@ 32
Our 31
ared 31
stopped 31
paid 31
reading 31
etting 31
continu@@ 31
quit 31
believ@@ 31
Tell 31
Re@@ 31
sum@@ 31
fif@@ 31
cy@@ 31
ok@@ 31
ited 31
duc@@ 31
lead 31
jour@@ 31
gn@@ 31
flo@@ 31
is. 31
troub@@ 31
abo@@ 31
scar@@ 31
caused 31
ward 31
ic. 31
pur@@ 31
hi@@ 31
Jerusal@@ 31
Sat@@ 31
jud@@ 31
Not 31
questions. 31
Iï¿½@@ 31
aring 31
lie 31
ow 31
prof@@ 31
es? 31
Those 31
knowled@@ 31
ince 31
var@@ 31
ality 31
umb@@ 31
selves 31
among 31
On@@ 30
ided 30
wed 30
ples 30
z@@ 30
ef 30
helped 30
waste 30
vernment 30
sun 30
Have 30
beha@@ 30
probably 30
mom@@ 30
ith 30
enc@@ 30
Tom@@ 30
ange 30
vir@@ 30
question 30
driv@@ 30
clear 30
answ@@ 30
ec@@ 30
enjoy 30
ists 30
anything. 30
send 30
import@@ 30
advise 30
is? 30
nothing. 30
activ@@ 30
May 30
disciples 30
Jews 30
cross 30
leaders 30
pray@@ 30
c 29
sev@@ 29
cle@@ 29
polit@@ 29
separ@@ 29
pick 29
ates 29
ordin@@ 29
develo@@ 29
other@@ 29
swim@@ 29
whole 29
cent 29
suff@@ 29
bus 29
support 29
uck@@ 29
office 29
much. 29
rap@@ 29
amp@@ 29
received 29
terr@@ 29
tric@@ 29
sil@@ 29
teach 29
proble@@ 29
promise 29
trans@@ 29
tra@@ 29
Kig@@ 29
ps 29
wa 29
saf@@ 29
sou@@ 29
rich 29
test@@ 29
store 29
something? 29
Mubera 29
will@@ 28
tak@@ 28
ew 28
ere 28
yester@@ 28
market 28
om 28
beaut@@ 28
put@@ 28
ves 28
ult 28
posit@@ 28
ere? 28
wand@@ 28
underst@@ 28
stup@@ 28
ware 28
urch 28
Kalisa 28
Ar@@ 28
Engl@@ 27
0 27
gam@@ 27
meet@@ 27
ould@@ 27
sat@@ 27
ire@@ 27
hour@@ 27
langu@@ 27
ip 27
anim@@ 27
In@@ 27
tell@@ 27
him@@ 27
ord 27
ways 27
mb@@ 27
Kinyarwanda 27
beg@@ 27
mag@@ 26
ak 26
hen 26
Can@@ 26
bag@@ 26
well@@ 26
duce 26
sto@@ 26
sel@@ 26
uh@@ 26
tele@@ 26
fil@@ 26
long@@ 25
ï¿½t 25
tom@@ 25
fore 25
ek@@ 25
ond@@ 25
ago 25
ired 25
..@@ 25
ome 25
Pa@@ 25
ile 25
Tok@@ 24
yo 24
ung@@ 24
Jap@@ 24
imb@@ 24
nï¿½t 24
ike 24
tory 24
dev@@ 24
Sin@@ 24
ived 24
enge 24
fam@@ 24
Al@@ 24
Bo@@ 24
ans@@ 24
Mus@@ 24
ana 24
fel@@ 24
ik@@ 23
ome@@ 23
e-@@ 23
mir@@ 23
toge@@ 23
lit@@ 23
hous@@ 23
bad@@ 23
dy 23
lef@@ 23
rit@@ 23
fu@@ 23
ben@@ 23
ute 23
wit@@ 23
Kam@@ 23
amag@@ 22
bor@@ 22
spo@@ 22
Fr@@ 22
apo@@ 22
ket 22
inc@@ 22
imin@@ 22
ï¿½@@ 22
rece@@ 22
wis@@ 22
inte@@ 22
thout 22
lov@@ 22
uk@@ 22
rwanda 22
cat@@ 22
seem@@ 21
kit@@ 21
:@@ 21
arriv@@ 21
numb@@ 21
pen@@ 21
ould 21
opp@@ 21
ugh 21
Boston 21
icy@@ 21
ara 21
bar@@ 21
cess@@ 21
Nd@@ 21
irit 21
inga 21
om. 21
Nkusi. 21
div@@ 20
run@@ 20
3@@ 20
Sh@@ 20
sib@@ 20
possib@@ 20
was@@ 20
ama 20
ever@@ 20
- 20
cial 20
doct@@ 20
i. 20
anga 20
ather 20
aj@@ 20
ih@@ 20
ek 20
inj@@ 20
Museveni 20
Rug@@ 20
ake. 20
nt@@ 19
a? 19
uy@@ 19
I'@@ 19
of@@ 19
tennis 19
wom@@ 19
lif@@ 19
differ@@ 19
Fren@@ 19
Kigali 19
afra@@ 19
ali 19
amb@@ 18
ster@@ 18
medi@@ 18
aka 18
ree 18
m. 18
aro@@ 18
ins@@ 18
Boston. 18
eget@@ 18
ure. 18
hap@@ 18
joy 18
Kagame 18
Kan@@ 18
't 18
ng@@ 18
gat@@ 18
_ 18
gir@@ 17
It@@ 17
nit@@ 17
0@@ 17
Pol@@ 17
ener@@ 17
by@@ 17
se? 17
Jes@@ 17
nab@@ 17
chi@@ 17
uring 17
Ind@@ 17
Kar@@ 17
uj@@ 17
you@@ 16
2@@ 16
eh@@ 16
ild@@ 16
ime 16
picn@@ 16
supp@@ 16
pos@@ 16
thous@@ 16
rememb@@ 16
thing? 16
Boston? 16
his@@ 16
e! 16
ye@@ 16
kig@@ 16
era. 16
wer 16
Rwanda. 16
yar@@ 15
ke 15
sle@@ 15
hum@@ 15
aw@@ 15
kin@@ 15
nd@@ 15
king@@ 15
wish@@ 15
Kal@@ 15
rug@@ 15
Go@@ 15
ene 15
ura 15
orro@@ 15
wait@@ 14
ol 14
ung 14
tomorro@@ 14
ildren 14
cer@@ 14
peop@@ 14
job@@ 14
V 14
e; 14
isa 14
Rwand@@ 14
enn@@ 14
anzu 14
ya 14
onï¿½t 14
again@@ 13
mit@@ 13
big@@ 13
ately 13
gas@@ 13
n'@@ 13
mone@@ 13
are. 13
S 13
Ny@@ 13
ze 13
on? 13
Kizito 13
Bur@@ 13
da@@ 13
tho@@ 13
abil@@ 13
yab@@ 13
Ab@@ 13
iru 13
anda 13
ateg@@ 13
Sp@@ 13
imit@@ 13
ld. 12
morn@@ 12
be. 12
imbati 12
ave 12
Let@@ 12
oke 12
tw@@ 12
omb@@ 12
ade 12
uch 12
Bar@@ 12
wab@@ 12
wr@@ 12
umba 12
ina 12
Nat@@ 12
abo 12
Tur@@ 11
ano 11
hel@@ 11
] 11
ell 11
ry@@ 11
lar@@ 11
bit@@ 11
ma 11
ize. 11
za 11
beli@@ 11
Q@@ 11
og@@ 11
No@@ 11
ouse 11
teac@@ 11
thing@@ 11
Ak@@ 11
ero 11
but@@ 11
mun@@ 11
kno@@ 11
wo@@ 11
azar@@ 11
eds 11
ongo 11
ira 11
bye 11
non@@ 11
na 11
anz@@ 11
Yo@@ 11
[@@ 10
wif@@ 10
h. 10
ortun@@ 10
ose 10
ere. 10
who@@ 10
scho@@ 10
ong. 10
gospe@@ 10
iful 10
dut@@ 10
nak@@ 10
clud@@ 10
od@@ 10
bid@@ 10
That@@ 10
wash@@ 10
ita 10
6@@ 9
immedi@@ 9
6 9
ko 9
z 9
fol@@ 9
need@@ 9
uz@@ 9
mp@@ 9
rus@@ 9
Joh@@ 9
eye 9
ich 9
ably 9
ge@@ 9
uny@@ 9
bloo@@ 9
Ng@@ 9
unda 9
Nyam@@ 9
esh@@ 9
Mug@@ 9
uth@@ 9
hat 9
ij@@ 9
aga 9
isha 9
iro 9
gis@@ 9
mug@@ 9
amer@@ 9
utsi 9
K 9
elo@@ 9
ugira 9
bi@@ 9
eri 9
ari 9
?@@ 9
Mub@@ 9
Nku@@ 9
expen@@ 8
hund@@ 8
y'@@ 8
mess@@ 8
ej@@ 8
Z@@ 8
aby@@ 8
mu@@ 8
none 8
diffic@@ 8
oma 8
eny@@ 8
ima 8
bib@@ 8
vern@@ 8
loo@@ 8
nas@@ 8
ren 8
ome. 8
yarwanda 8
ano. 8
disci@@ 8
nyir@@ 8
yo. 7
u. 7
ati 7
build@@ 7
you'@@ 7
wo 7
D 7
1@@ 7
atwa 7
God@@ 7
Har@@ 7
Ur@@ 7
ona 7
abat@@ 7
aut@@ 7
undi 7
iri 7
unt@@ 7
ati@@ 7
Pe@@ 7
imana 7
ink 7
uzi 7
indi 7
uhanda 7
7 6
uki 6
int 6
os@@ 6
look@@ 6
i? 6
mur@@ 6
omen 6
ï¿½ 6
agera 6
abe 6
eli 6
Int@@ 6
yi 6
atab@@ 6
ora 6
ito 6
ibit@@ 6
resp@@ 6
Nt@@ 6
azi 6
izi 6
N 6
tain 6
tro@@ 6
secon@@ 6
uha@@ 6
bish@@ 6
unti@@ 6
andi 6
Im@@ 6
uf@@ 6
rw@@ 6
ema 6
pop@@ 6
mub@@ 6
) 5
7@@ 5
wav@@ 5
wast@@ 5
tenn@@ 5
yam@@ 5
ioned 5
uff@@ 5
ato 5
ambo 5
on't 5
believer@@ 5
Museven@@ 5
Mr@@ 5
wic@@ 5
uba 5
uga 5
diff@@ 5
Bir@@ 5
kw@@ 5
uye 5
respon@@ 5
Nyir@@ 5
yag@@ 5
acy@@ 5
Kag@@ 5
ukara 5
stopp@@ 5
aba 5
zi 5
gus@@ 5
eyo 5
kam@@ 5
uv@@ 5
fri@@ 5
gak@@ 5
byukusenge 5
espe@@ 4
kir@@ 4
wak@@ 4
ite. 4
umi 4
ga 4
hig@@ 4
ika 4
wir@@ 4
8@@ 4
yo? 4
arag@@ 4
iter@@ 4
si. 4
inya 4
sive 4
unga 4
cloth@@ 4
wul@@ 4
abar@@ 4
si 4
wro@@ 4
Az@@ 4
eye. 4
ara. 4
yang@@ 4
drug@@ 4
ego 4
ye 4
O 4
wezi 4
amas@@ 4
(@@ 4
Pet@@ 4
anya 4
iny@@ 4
iy@@ 4
ata 4
under@@ 4
ani 4
ka@@ 4
erest@@ 4
git@@ 4
ukundo 4
eza 4
ezi 4
nyam@@ 4
contin@@ 4
M 4
responsib@@ 4
ango 4
kiz@@ 4
wag@@ 3
5@@ 3
buz@@ 3
.m. 3
$ 3
5 3
% 3
uro 3
bik@@ 3
oni 3
wah@@ 3
ont 3
tere@@ 3
rub@@ 3
ondo 3
amba 3
anza 3
omo 3
Mur@@ 3
Am@@ 3
erusal@@ 3
igo 3
wi 3
buk@@ 3
inda 3
uza 3
grab@@ 3
oro 3
nk@@ 3
izab@@ 3
Imp@@ 3
ony@@ 3
bw@@ 3
ungo 3
mugabo 3
!@@ 3
oro@@ 3
uke 3
anuka 3
anda. 3
nig@@ 3
kar@@ 3
iko 3
asa 3
uma 3
nag@@ 3
ruh@@ 3
kab@@ 3
inform@@ 3
ete 3
/@@ 3
wanda 3
zo 3
rut@@ 3
irwa 3
enzi 3
\ 3
ween 3
Nag@@ 3
sa 2
akur@@ 2
dus@@ 2
ibi 2
aku@@ 2
Kur@@ 2
2 2
3 2
ako 2
o? 2
ukor@@ 2
after@@ 2
aha 2
usa 2
ishimiye 2
iki 2
umw@@ 2
enya 2
ombe 2
amur@@ 2
tub@@ 2
Y 2
oba 2
cially 2
emera 2
ur 2
Bib@@ 2
examp@@ 2
ingo 2
iff@@ 2
ho 2
ire. 2
ilima 2
uka 2
led@@ 2
amar@@ 2
erere 2
anyi 2
spit@@ 2
ida 2
aga. 2
uru 2
we. 2
ira. 2
kib@@ 2
aya 2
does@@ 2
uri 2
itab@@ 2
ori 2
ami 2
ugu 2
a! 2
ngomba 2
aje 2
umut@@ 2
ayo 2
umu@@ 2
jo 2
lease 2
iye 2
imbo 2
wim@@ 2
4 2
anzi 2
allow@@ 2
Ing@@ 2
ega 2
ns@@ 2
pa 2
eze 2
anga. 2
mib@@ 2
endo 2
mut@@ 2
bak@@ 2
wa. 2
nar@@ 2
gih@@ 2
mu 2
ku 2
wiza 2
eka 2
insh@@ 2
angwa 2
nï¿½@@ 2
mud@@ 2
isi 2
muh@@ 2
wem@@ 2
4@@ 2
ana. 1
gut@@ 1
aka. 1
mf@@ 1
ze. 1
byambo 1
nib@@ 1
erayo 1
ozi 1
erwa 1
ishaka 1
imu 1
enda 1
ashak@@ 1
amv@@ 1
ura. 1
;@@ 1
oma. 1
ini 1
ukub@@ 1
Kiz@@ 1
arak@@ 1
kur@@ 1
kum@@ 1
amo 1
eho 1
ez@@ 1
ka 1
yah@@ 1
oko 1
Ib@@ 1
uti 1
ka. 1
/ 1
iya 1
aze 1
ibir@@ 1
angu@@ 1
zir@@ 1
= 1
uta 1
)@@ 1
utera 1
aso 1
iyo@@ 1
xt 1
mah@@ 1
ubona 1
ku@@ 1
kindi 1
ahind@@ 1
iro. 1
anze 1
ico 1
Nk@@ 1
By@@ 1
inzi 1
eba 1
Waba 1
Ngomba 1
agas@@ 1
aro 1
Nari 1
uha 1
inyo@@ 1
byawe 1
eshya 1
enz@@ 1
atanga 1
ayi 1
ombwa 1
Biz@@ 1
hejuru 1
yose 1
hari 1
Imana 1
arwanda 1
Ever@@ 1
umur@@ 1
iza. 1
Ubu@@ 1
kund@@ 1
Af@@ 1
ari. 1
aho 1
9 1
bash@@ 1
yu 1
uku@@ 1
oz@@ 1
buh@@ 1
anj@@ 1
nkum@@ 1
umuriro 1
imo 1
agur@@ 1
iyo 1
erek@@ 1
amat@@ 1
amu 1
Z 1
inam@@ 1
umus@@ 1
ffe@@ 1
abura 1
aram@@ 1
Nig@@ 1
R 1
abyo 1
akom@@ 1
erer@@ 1
aza. 1
bis@@ 1
hose 1
ima. 1
C 1
amad@@ 1
8 1
eko 1
wig@@ 1
hana 1
guk@@ 1
gic@@ 1
asi 1
ibuka 1
yabaye 1
abab@@ 1
aza 1
erezo 1
ni 1
mbi 1
P 1
H 1
igihe 1
cyo 1
kuvuga 1
Ninde 1
oka 1
agiye 1
nz@@ 1
agaruka 1
abas@@ 1
mubir@@ 1
uwa 1
q@@ 1
ubw@@ 1
ngiye 1
kuba 1
kugenda 1
ibiryo 1
iriye 1
imir@@ 1
Non@@ 1
abwa 1
iba 1
ako@@ 1
Uk@@ 1
arah@@ 1
rik@@ 1
iya. 1
mwiza 1
byukus@@ 1
muc@@ 1
asha 1
we? 1
hano 1
kuru 1
iring@@ 1
yan@@ 1
ki 1
afar@@ 1
oza 1
muk@@ 1
nsh@@ 1
cya 1
iteg@@ 1
T 1
saa 1