ko 3080
mu 2659
y@@ 1902
n@@ 1739
ab@@ 1642
b@@ 1610
ar@@ 1324
at@@ 1306
wa 1243
ari 1222
ku 1217
ur@@ 1214
ut@@ 1161
a. 1153
ak@@ 1102
i 1079
we 1062
ub@@ 1057
k@@ 1034
ib@@ 1026
it@@ 1000
ag@@ 984
z@@ 958
m@@ 955
ir@@ 953
am@@ 953
by@@ 949
ya 945
a 944
na 934
Ntabwo 912
nï¿½@@ 906
ikintu 899
ik@@ 895
ana 872
muri 866
um@@ 849
an@@ 833
N@@ 832
hari 817
az@@ 792
ah@@ 790
nt@@ 782
w@@ 776
ura 758
kub@@ 755
yo 753
icyo 745
r@@ 742
uk@@ 739
o. 729
era 721
as@@ 716
i. 712
ira 700
ig@@ 691
gukora 686
u 684
cy@@ 676
aho 674
im@@ 673
ni 673
cyane 668
B@@ 659
ye 650
e. 644
ug@@ 644
kandi 641
uz@@ 640
t@@ 629
is@@ 623
kuri 616
yari 610
anga 610
ibyo 609
aga 608
kum@@ 599
iki 594
o 566
Y@@ 564
a? 556
neza 552
ariko 549
ing@@ 549
igihe 532
aba 531
uh@@ 528
K@@ 526
I@@ 524
M@@ 519
ngo 513
uko 512
e 506
ang@@ 506
iz@@ 488
er@@ 485
in@@ 482
gut@@ 474
yar@@ 474
no 472
kur@@ 468
n'@@ 466
nk@@ 465
ntabwo 465
i@@ 463
yï¿½@@ 462
abantu 459
U@@ 450
bw@@ 448
nd@@ 448
ish@@ 446
or@@ 444
kuba 442
uye 442
iye 438
Niba 436
iri 432
ara 422
s@@ 417
bar@@ 416
ire 413
g@@ 409
kug@@ 409
ung@@ 404
bit@@ 403
gus@@ 403
ih@@ 403
on@@ 403
yab@@ 401
iy@@ 396
cyo 394
bat@@ 390
ku@@ 389
ize 386
niba 385
ush@@ 383
iyo 381
us@@ 379
kw@@ 379
o@@ 376
uka 375
u@@ 375
cyangwa 372
amb@@ 370
ash@@ 370
h@@ 369
kugira 368
impamvu 367
we. 367
Kuki 367
any@@ 365
guh@@ 363
Mariya 362
afite 358
nz@@ 355
a@@ 348
em@@ 347
wa@@ 346
G@@ 346
umuntu 343
abo 339
imb@@ 331
A@@ 331
bak@@ 330
ay@@ 329
Imana 329
un@@ 327
ind@@ 327
azi 326
mbere 325
aza 324
kugirango 322
ad@@ 322
bir@@ 321
Ab@@ 317
icy@@ 317
Nt@@ 316
ashobora 316
isha 316
wi@@ 316
Nta 311
Mu 307
yam@@ 300
anye 298
mub@@ 297
ibintu 296
iza 296
ng@@ 295
iny@@ 293
aha 289
aka 284
aye 283
bag@@ 282
akora 281
T@@ 281
yat@@ 279
inz@@ 279
d@@ 278
ere 277
Nz@@ 276
uyu 274
eka 274
za 273
wï¿½@@ 273
avuga 271
kuko 270
ry@@ 269
uze 268
bwo 267
iby@@ 267
H@@ 266
W@@ 266
nta 266
e? 265
Hariho 265
gihe 264
bab@@ 263
f@@ 262
mb@@ 262
isi 261
ud@@ 261
and@@ 260
u. 259
anya 258
eye 256
Um@@ 255
byose 254
uza 253
utse 249
Nd@@ 246
en@@ 246
ika 244
si 243
e@@ 243
wo 243
mugihe 242
inama 242
ny@@ 242
iyi 241
wiye 241
sh@@ 238
are 236
wit@@ 236
ob@@ 235
uzi 234
i? 234
imp@@ 233
uri 233
ic@@ 232
ibi 230
amafaranga 230
guk@@ 229
p@@ 228
igeze 227
S@@ 226
uma 226
agira 226
ora 224
om@@ 224
Ndashaka 224
ashaka 224
id@@ 223
j@@ 223
ye. 222
nab@@ 220
munsi 220
umwe 220
kubona 219
bari 219
eng@@ 219
y'@@ 219
R@@ 218
iwe 218
ore 217
av@@ 216
ntib@@ 215
gusa 214
ij@@ 213
git@@ 213
wa. 212
ane 212
eza 211
nyuma 211
big@@ 209
mur@@ 207
ez@@ 207
umva 207
amo 205
ze 205
mum@@ 204
ong@@ 204
mug@@ 204
yo@@ 202
ashy@@ 202
Nkusi 202
Ur@@ 201
ije 200
ukuri 200
Hari 200
buri 199
ikir@@ 199
war@@ 199
Ni 198
Mfite 198
eg@@ 197
ushobora 196
uru 196
kir@@ 194
eze 194
yag@@ 193
umun@@ 193
ek@@ 193
irwa 192
wan@@ 190
Pawulo 190
abar@@ 189
aje 189
wab@@ 188
v@@ 188
we@@ 188
Muri 188
ere@@ 187
tw@@ 187
bik@@ 187
ima 187
wi 186
biz@@ 186
ama 185
buryo 184
inda 183
oko 183
byo 182
ini 182
ac@@ 181
. 181
gush@@ 181
uwo 179
maze 179
rw@@ 179
ero 179
cya 178
bose 178
kugeza 178
ushaka 178
ufite 177
yit@@ 176
ajya 175
ubu 175
hano 174
anze 173
wanjye 173
enda 173
imo 173
ati 172
kumenya 172
agomba 172
se 171
imwe 171
wari 170
ibibazo 170
kumva 170
kuvuga 170
akazi 169
kujya 169
zo 169
umuk@@ 169
Hano 169
ani 168
umug@@ 168
gukora. 168
ejo 167
bamwe 167
omeye 167
ayo 166
ba 165
be 165
o? 165
baz@@ 165
iya 165
agar@@ 164
ha@@ 164
bah@@ 162
kuz@@ 162
ubw@@ 162
Uz@@ 162
benshi 162
rwose 161
neza. 160
ubwo 160
abana 160
wir@@ 160
eb@@ 160
esh@@ 160
kurya 160
byinshi 160
end@@ 159
hamwe 159
umwanya 159
ntiy@@ 159
ndetse 159
af@@ 158
tuz@@ 158
umut@@ 158
Am@@ 157
uro 157
gufata 156
mp@@ 156
ikor@@ 155
ibir@@ 155
eri 155
bimwe 155
uf@@ 154
Sin@@ 154
bam@@ 153
yose 153
cyane. 153
kig@@ 152
oni 152
nshobora 152
mut@@ 152
Iyo 152
wese 152
bwa 152
Tom 152
kimwe 151
kintu 151
imbere 151
amat@@ 150
ozi 150
aze 149
uburyo 149
? 149
he@@ 148
int@@ 148
bu@@ 148
kwi@@ 147
onye 147
bur@@ 146
uha 146
abona 146
ï¿½@@ 145
ink@@ 144
yah@@ 144
agenda 142
gik@@ 142
ibit@@ 142
bib@@ 142
but@@ 142
ira. 141
ikibazo 141
byukusenge 141
umur@@ 140
byiza 139
Urashaka 139
Abantu 138
ndimbati 138
akunda 138
ure 138
abandi 138
nkï¿½@@ 138
oma 137
yo. 137
je 137
ino 137
c@@ 137
if@@ 136
itse 136
undi 136
ereye 135
iriye 134
wira 134
za. 134
agiye 134
ajy@@ 134
ubuzima 134
aku@@ 133
ugomba 133
uku@@ 133
bwï¿½@@ 133
bo 132
ubur@@ 131
kubera 131
yanjye 131
Ib@@ 131
inga 131
eho 131
etse 130
era. 130
anda 130
Sinzi 130
yuko 129
to 129
nib@@ 129
ubwoba 129
mfite 129
oro 128
akur@@ 128
Ndimbati 128
kut@@ 128
one 127
ano 127
umus@@ 127
ubut@@ 127
bish@@ 127
bih@@ 127
aby@@ 126
aram@@ 126
kwit@@ 126
ok@@ 126
amagambo 126
ine 126
amas@@ 126
bas@@ 125
ungu 125
uy@@ 125
akoze 125
ye@@ 125
enge 125
indi 125
imy@@ 124
saa 124
be@@ 124
yavuze 123
uga 123
iro 123
ukunda 123
enga 123
ike 122
yi 122
urira 122
ukor@@ 122
Nzi 122
iv@@ 121
uj@@ 121
bya 121
l@@ 121
rya 121
cyose 120
ot@@ 120
gukor@@ 120
te@@ 119
ona 119
Im@@ 119
inj@@ 119
izi 119
anira 119
ikindi 119
nawe 118
akub@@ 118
Kandi 118
Rwanda 117
angiye 116
tut@@ 116
tur@@ 116
abany@@ 115
'@@ 115
igit@@ 115
imbaraga 115
ond@@ 114
umw@@ 114
nkaho 113
bwe 113
se. 113
amakuru 113
gat@@ 113
iko 113
akor@@ 113
Sinshobora 112
nuko 112
ijwe 111
mw@@ 111
esha 111
igera 111
nsh@@ 110
numva 110
waye 110
oh@@ 110
ake 110
kugura 110
: 110
muk@@ 109
jy@@ 109
zï¿½@@ 109
byï¿½@@ 109
ip@@ 108
erek@@ 108
imyaka 108
amag@@ 108
umugore 108
al@@ 108
Ub@@ 108
ewe 108
vuba 107
emo 107
angira 107
kar@@ 107
umunsi 107
ita 107
inzu 107
wawe 107
muntu 107
ina 106
aho. 106
anza 106
nshaka 106
amar@@ 106
abat@@ 106
sibyo? 106
Kristo 106
eny@@ 105
Igihe 105
ura. 105
ako 105
et@@ 105
amahirwe 105
hejuru 104
ishy@@ 104
rimwe 104
w'@@ 104
ya. 104
abab@@ 104
avug@@ 104
umwana 104
ereza 104
yawe 104
Ibyo 104
yas@@ 104
bafite 103
andi 103
wem@@ 103
ongera 102
sin@@ 101
imodoka 101
uba 101
inshuti 101
hano. 101
kuby@@ 100
wat@@ 100
ishije 100
rero 100
ami 100
Byambo 100
ata 99
ice 99
umye 99
imit@@ 99
ingo 99
uc@@ 98
yak@@ 97
mwi@@ 97
nam@@ 97
enshi 97
nzi 97
ihe 97
ap@@ 97
enze 97
yabo 97
byambo 97
; 97
umv@@ 96
bis@@ 96
anzwe 96
atu 96
waga 96
erwa 96
mus@@ 96
aha@@ 96
byari 95
D@@ 95
bï¿½@@ 95
E@@ 94
anwa 94
my@@ 94
ukora 94
es@@ 94
runaka. 94
ikorwa 93
ufasha 93
iba 93
abaye 93
enya 93
uti 93
umurimo 93
Ugomba 92
aj@@ 92
amaze 92
uka. 92
ana. 92
abonye 92
eje 92
mpamvu 92
tug@@ 92
ryï¿½@@ 92
kubikora 92
ho 91
igik@@ 91
si. 91
gi@@ 91
ashakaga 91
iza. 91
abye 91
kib@@ 91
arag@@ 91
asa 91
nag@@ 91
aha. 90
izera 90
awe 90
kubaho 90
Reka 90
umu@@ 90
kwiga 90
mun@@ 90
uv@@ 90
hafi 90
ubwira 89
yumva 89
nyinshi 89
inzira 89
urwa 89
ukund@@ 88
anz@@ 88
tub@@ 88
zit@@ 88
ambara 88
umub@@ 87
Ntugomba 87
azi. 87
nar@@ 87
u? 87
up@@ 87
ashoboraga 87
zi 87
we? 87
ahubwo 87
P@@ 86
cyumba 86
nka 86
Nubwo 86
amwe 86
wenyine. 86
Ku 86
rug@@ 86
ans@@ 86
aro 86
amah@@ 85
unga 85
uta 85
asha 85
umuh@@ 85
ntekereza 85
abag@@ 85
avuze 85
kwa 85
ange 85
und@@ 84
wana 84
enye 84
gahunda 84
nkuko 84
ota 84
meza 84
ifuzaga 84
amazi 84
rwa 84
.@@ 84
Sinshaka 84
gish@@ 83
J@@ 83
amagara 83
ho@@ 83
menshi 83
wenyine 83
ubutumwa 83
wacu 82
ibitekerezo 82
mu@@ 82
inshi 82
umvaga 82
nari 82
jye 82
Uyu 82
ambi 82
ishuri 82
ambo 82
mat@@ 81
angir@@ 81
kuva 81
kiz@@ 81
iye. 81
inte@@ 81
il@@ 81
wam@@ 81
uriye 81
abwa 81
angije 80
ban@@ 80
buk@@ 80
cyiza 80
C@@ 80
andukanye 80
hagati 80
ashim@@ 80
Ikintu 80
ije. 80
umvise 80
atari 80
amba 80
ahind@@ 79
wara 79
kim@@ 79
Abany@@ 79
wav@@ 79
amab@@ 79
muh@@ 79
mwiza 78
anuka 78
y 78
igo 78
Tugomba 78
ej@@ 78
kwig@@ 78
oz@@ 78
Natekereje 78
yo? 78
ifite 78
ibiryo 78
urub@@ 77
ori 77
oro. 77
omeje 77
zir@@ 77
ome@@ 77
intu 77
ongo 77
se@@ 77
ntaz@@ 77
cyï¿½@@ 77
wig@@ 76
ngomba 76
eba 76
ibih@@ 76
yir@@ 76
uruh@@ 76
wandiko 76
kare 75
anga. 75
ombaga 75
aya 75
enzi 75
erera 75
bid@@ 75
abaza 75
sind@@ 75
urukundo 75
ï¿½ 75
aye. 74
igih@@ 74
itab@@ 74
mirongo 74
umba 74
wag@@ 74
kunda 74
omb@@ 74
izina 74
kund@@ 74
insh@@ 74
acy@@ 74
Int@@ 74
amutse 73
yand@@ 73
imvura 73
atsi 73
uvug@@ 73
kuny@@ 73
og@@ 73
mv@@ 73
oho@@ 73
bim@@ 73
kukub@@ 73
ibuka 73
ba@@ 72
re@@ 72
Ntekereza 72
umugabo 72
Ndumva 72
abas@@ 72
eguye 72
umuryango 72
amafaranga. 72
obanura 72
Ik@@ 72
ntacyo 72
rwï¿½@@ 72
Urashobora 71
ayi 71
Bir@@ 71
wih@@ 71
bwiza 71
ijambo 71
wand@@ 71
abah@@ 71
cyilima 71
oze 70
har@@ 70
akar@@ 70
uwe 70
Ntuk@@ 70
ris@@ 70
ubug@@ 70
Ariko 70
non@@ 69
egereje 69
gukoresha 69
yashakaga 69
inze 69
nzu 69
ite 69
agera 69
jya 69
oban@@ 69
kureba 68
gushaka 68
Tuz@@ 68
igitekerezo 68
kwir@@ 68
munsi. 68
ateg@@ 68
ise 68
ifuza 68
umuhungu 68
mugabo 68
ubira 68
ne@@ 68
ugo 68
murugo 67
ant@@ 67
ashoboye 67
uje 67
Nyamuneka 67
umb@@ 67
so@@ 67
wish@@ 67
akomeza 67
hanyuma 67
imig@@ 67
kwizera 67
amub@@ 67
harimo 67
yakoze 67
bavuga 67
sinda 66
oka 66
emb@@ 66
anduk@@ 66
guf@@ 66
apf@@ 66
yira 66
ande 66
umutima 66
ego 66
abak@@ 66
umwami 66
tugomba 65
he 65
cy'@@ 65
ahantu 65
afata 65
F@@ 65
rus@@ 65
yobozi 65
ntashobora 65
anjye 65
inshi. 65
imib@@ 65
nziza 65
yacu 65
ubus@@ 65
ayo. 65
emera 65
nï¿½ib@@ 65
ati: 65
ubuh@@ 65
nubwo 64
onje 64
wabo 64
wash@@ 64
ishobora 64
akoresh@@ 64
gutekereza 64
dushobora 64
amategeko 64
ndi 64
ugira 64
ivuga 64
gis@@ 64
sa 63
iga 63
uny@@ 63
Kub@@ 63
ijoro 63
nat@@ 63
ubush@@ 63
rwo 63
do@@ 63
utab@@ 63
wiza 63
kwish@@ 63
imana 63
moshi 62
yih@@ 62
Az@@ 62
rub@@ 62
kunywa 62
Nari 62
agije 62
ajije 62
Yesu 62
ka 62
anet 61
gari 61
antu 61
weho 61
obwa 61
areba 61
oba 61
agur@@ 61
nk'@@ 61
atangira 61
umwan@@ 61
iminsi 61
bi@@ 61
untu 61
angam@@ 61
go 61
ebe 60
z'@@ 60
ikintu. 60
amash@@ 60
Icyo 60
eneye 60
oro@@ 60
kugenda 60
ngombwa 60
bus@@ 60
Kubera 60
ezi 60
! 59
Nshobora 59
akeneye 59
bantu 59
buh@@ 59
amaz@@ 59
bug@@ 59
ibyiza 59
gihugu 59
uhe 59
zose 59
byat@@ 59
izaba 59
yerek@@ 58
ugu 58
L@@ 58
acu 58
dus@@ 58
aniro 58
Ntug@@ 58
sit@@ 58
el@@ 58
kuza 58
Ibi 58
ababyeyi 58
angaje 58
amp@@ 58
igaye 58
by'@@ 58
go@@ 57
uruka 57
iciro 57
agarag@@ 57
bye 57
isa 57
ambere 57
ubiza 57
ushya 57
duk@@ 57
ubwenge 57
wanya 57
iho 57
zimwe 57
enewe 57
gu@@ 57
Umuk@@ 57
ubufasha 57
Rukara 57
ware 57
ango 57
Mug@@ 56
ubuk@@ 56
O@@ 56
nkor@@ 56
erageje 56
uru. 56
aga. 56
ejo. 56
ekerezo 56
egeko 56
inkuru 56
itamo 56
uwa 56
oga 56
gusoma 56
nï¿½ab@@ 56
ibazo 56
Buri 55
mf@@ 55
kuruta 55
gato 55
bizat@@ 55
kwic@@ 55
igish@@ 55
gihe. 55
cumi 55
imyenda 55
Yo@@ 55
ntak@@ 55
erekana 55
nkeneye 55
ataz@@ 55
amenya 55
Bamwe 55
hariho 55
yaz@@ 54
umbi 54
nyam@@ 54
kureka 54
angiza 54
ombe 54
imbwa 54
Nzag@@ 54
yose. 54
uye. 54
ini. 54
Tur@@ 54
imir@@ 54
ishwa 54
-@@ 54
uzuye 54
bad@@ 54
mbona 54
bo@@ 54
ingenzi 54
ari. 54
dufite 54
Umwami 54
ishaka 53
muto 53
ashe 53
ns@@ 53
par@@ 53
mah@@ 53
rut@@ 53
cyan@@ 53
byab@@ 53
mas@@ 53
inzwe 53
obanuro 53
anjye. 53
gih@@ 53
kud@@ 53
umukobwa 53
Ntushobora 53
inyo@@ 53
vuga 53
Mariya. 53
nit@@ 53
bakunda 53
mugit@@ 52
Icy@@ 52
ere. 52
inyuma 52
kugera 52
wowe 52
atab@@ 52
ate 52
atekereza 52
gutanga 52
ikora. 52
kuvugana 52
Ak@@ 52
arimo 52
nzag@@ 52
imirimo 52
abo. 52
kibazo 52
Nkeneye 52
umush@@ 52
kurya. 52
fite 52
ibitabo 52
yanjye. 52
ika@@ 52
zik@@ 52
intambara 52
eretse 52
yumvise 52
kera 52
akamaro 52
inzi 52
arak@@ 51
hag@@ 51
aguruka 51
shi. 51
kabiri 51
ahagar@@ 51
Nk@@ 51
gusa. 51
ibazo. 51
yamb@@ 51
agaragara 51
imwe. 51
erezo 51
erewe 51
ishe 51
ihe@@ 51
ibag@@ 51
nkunda 51
nawe. 51
ishim@@ 51
awe. 51
Ar@@ 51
ako@@ 51
asanzwe 51
ga 51
yobo@@ 51
kumv@@ 51
aragaza 51
ome 51
umuz@@ 51
mwana 51
Ufite 51
wa? 51
umubiri 51
haz@@ 51
wiriye 51
cye 50
ongereza 50
Nag@@ 50
ashak@@ 50
Ngiye 50
nabi 50
ibis@@ 50
egereza 50
aza. 50
joro 50
omba 50
andimwe 50
iriza 50
bityo 50
yib@@ 50
kujy@@ 50
ambwira 50
cyumweru 50
obanuk@@ 50
andiko 50
umwa 50
waho 50
kuburyo 49
Numvise 49
afash@@ 49
uw@@ 49
injira 49
ene 49
Nizere 49
ageze 49
amus@@ 49
imyit@@ 49
utera 49
aragara 49
ondo 49
itsi 49
ruh@@ 49
akira 49
Uratekereza 49
ge 49
ekerez@@ 49
Abay@@ 49
ayeho 49
ye? 49
wumva 49
abwira 49
runaka 49
sinzi 49
cyub@@ 49
Ntacyo 49
kumeny@@ 49
ibyiyumvo 49
unzi 49
Mub@@ 49
yeyi 48
Umuntu 48
yafashe 48
anu 48
uzab@@ 48
bwawe 48
asaba 48
ukub@@ 48
kurangiza 48
ibishoboka 48
urik@@ 48
guc@@ 48
utekereza 48
ampa 48
kumub@@ 48
oza 48
mbi 48
ijuru 48
urutse 48
ufata 47
ikije 47
erere 47
kwihanganira 47
izwe 47
amakosa 47
kwiy@@ 47
yu 47
byose. 47
nim@@ 47
ozo 47
ubu. 47
wenge 47
zig@@ 47
atse 47
ubwoko 47
hab@@ 47
eka. 46
bw'@@ 46
ose 46
amasaha 46
gitabo 46
mo@@ 46
Uzi 46
isemo 46
ikora 46
kibi 46
ezer@@ 46
izo 46
eraga 46
yav@@ 46
bwa@@ 46
ajwe 46
endo 46
yan@@ 46
kuki 46
anzi 46
yaba 46
erag@@ 46
ago 46
Utekereza 46
agaciro 46
erez@@ 45
ikig@@ 45
igitabo 45
ikirere 45
iki? 45
omeye. 45
oraga 45
isaha 45
induka 45
yagize 45
kongera 45
Umw@@ 45
inya 45
agerageza 45
oboka 45
bany@@ 45
mir@@ 45
iryo 45
udashaka 45
agaruka 45
irira 45
kubyuka 44
Ngomba 44
kumur@@ 44
ora. 44
gitondo. 44
gitondo 44
apani 44
oye 44
iraga 44
ute 44
uma. 44
ahita 44
kubyo 44
By@@ 44
yawe. 44
amaf@@ 44
ite. 44
hanze 44
bakora 44
kazi 44
andatu 44
zawe 44
Ndatekereza 44
kurush@@ 44
imibereho 44
angayik@@ 44
ha 44
uhaye 44
iran@@ 44
ereka 44
eyo 44
ingabo 44
abyo 44
Waba 43
nkora 43
mar@@ 43
omo 43
duh@@ 43
ukur@@ 43
bwi@@ 43
an 43
urimi 43
urug@@ 43
ejwe 43
eye. 43
adashaka 43
uvuga 43
imira 43
byawe 43
igihugu 43
kit@@ 43
yig@@ 43
inshingano 43
impano 43
bac@@ 43
kuryam@@ 42
teref@@ 42
birashoboka 42
warimu 42
mbere. 42
iro. 42
umwaka 42
yagiye 42
agaze 42
habaye 42
usho 42
yaje 42
a! 42
enda. 42
eshuri 42
yashy@@ 42
ibik@@ 42
nku@@ 42
mud@@ 42
anyije 42
was@@ 42
yakor@@ 42
ubah@@ 42
ansa 42
ahe 42
erer@@ 42
angwa 42
enz@@ 42
atwa 42
izindi 42
kung@@ 42
ariye 42
buzima 42
bintu 42
bub@@ 42
kinini 41
ishya 41
yis@@ 41
gukomeza 41
wo@@ 41
Nat@@ 41
muryango 41
bagomba 41
In@@ 41
ve 41
oroshye 41
wandik@@ 41
ambaye 41
Iyi 41
n 41
' 41
izwa 41
shobora 41
ngiye 41
zih@@ 41
abakobwa 41
aw@@ 41
kuvug@@ 41
ibiri 41
indwara 41
uke 41
kubikora. 41
upfu 41
kidasanzwe 41
mag@@ 41
abagore 41
ungo 41
imu 41
ameze 41
gupf@@ 40
ongeye 40
amaj@@ 40
abanyeshuri 40
mush@@ 40
afar@@ 40
ushye 40
iri. 40
sinze 40
Amerika 40
mujyi 40
rir@@ 40
Yari 40
omeza 40
ka. 40
yabaye 40
anye. 40
babar@@ 40
arab@@ 40
wanjye. 40
ezerano 40
ukuntu 40
amav@@ 40
awe? 40
yem@@ 40
ujy@@ 40
hano? 40
V@@ 40
icyo. 40
kubw@@ 40
bwose 40
ibaza 40
ivug@@ 40
weto 40
ubub@@ 40
Biz@@ 40
avuga. 40
akoresha 40
akaba 40
kï¿½@@ 40
bene 40
bimwe. 40
angaz@@ 39
zabo 39
erageza 39
me@@ 39
Data 39
je. 39
ukura 39
jye. 39
kab@@ 39
ubucuruzi 39
Dufite 39
wego 39
iraho 39
umbu@@ 39
akora. 39
akuru 39
ntiyigeze 39
guhindura 39
ima. 39
gutaha 39
gito 39
urikira 39
uburenganzira 39
irimba 39
ibyo. 39
uriya 39
intwari 39
nkï¿½uko 39
wiriza 39
imv@@ 39
gukina 38
cyari 38
itatu 38
amagar@@ 38
Ubu@@ 38
umukoro 38
kwih@@ 38
icyemezo 38
amut@@ 38
ameny@@ 38
aje. 38
fir@@ 38
ma 38
inama. 38
myinshi 38
Mar@@ 38
Nab@@ 38
nyina 38
erezida 38
Ejo 38
kuzana 38
abikora 38
umuc@@ 38
Nyuma 38
arar@@ 38
yahaye 38
ekereje 38
eke 38
ete 38
kure 38
Iny@@ 38
amahanga 38
urugendo 38
atwara 38
ifunguro 38
ifat@@ 38
ushak@@ 38
to@@ 38
kwerekana 38
Aho 38
nig@@ 38
ahudi 38
sig@@ 38
kindi 38
yashoboraga 38
ingaruka 38
meze 38
upfu. 38
hariya 38
Nuko 38
amahoro 38
Imana. 38
ifash@@ 38
kuru 37
abiri 37
Yar@@ 37
arah@@ 37
amad@@ 37
turi 37
muburyo 37
min@@ 37
Noneho 37
inka 37
ec@@ 37
egere@@ 37
ona. 37
kwishy@@ 37
atu. 37
izuba 37
umwuka 37
iyem@@ 37
erekeye 37
uku 37
ahan@@ 37
usaba 37
angahe 37
uze. 37
icumi 37
ikoresh@@ 37
imbab@@ 37
ryari 37
Birasa 37
rugo 37
uruz@@ 37
uzag@@ 37
bash@@ 37
hak@@ 37
ony@@ 37
usa 37
ine. 37
ufasha. 37
minsi 37
amateka 37
engero 37
waro 37
baba 37
bakor@@ 37
wizera 37
Abanyarwanda 37
babo 36
urus@@ 36
Kug@@ 36
yambwiye 36
amuka 36
modoka 36
anije 36
Hagomba 36
anzwe. 36
wose 36
amaso 36
ufashe 36
kugenda. 36
yabwiye 36
Byaba 36
Ninde 36
igisubizo 36
yango 36
amaraso 36
Birashoboka 36
iteg@@ 36
ibic@@ 36
kin@@ 36
nshya 36
Kur@@ 36
kuwa 36
urikiza 36
guhura 36
nko 36
imenyetso 36
dut@@ 36
ubushobozi 36
udafite 36
kirekire 36
ahagije 36
wic@@ 36
kubwira 36
abaturage 36
ukomeye 36
eranya 36
magambo 36
ukeneye 36
amashuri 36
anywa 36
ubundi 36
angaza 36
ibye 36
ubona 36
umenyi 36
tuk@@ 36
eshya 36
intumwa 36
ol@@ 36
mib@@ 36
esheje 36
bav@@ 36
cyat@@ 35
ishuri. 35
ire. 35
Mur@@ 35
ibig@@ 35
mwaka 35
ize. 35
agaragaye 35
ibikorwa 35
ukuri. 35
ubwoba. 35
umutwe 35
teri 35
Abat@@ 35
uranyi 35
oboye 35
make 35
ano. 35
ibihe 35
ibikoresho 35
aka. 35
anja 35
umuv@@ 35
imye 35
ica 35
akunze 35
abagabo 35
indirimbo 35
mab@@ 35
bazi 35
inyamaswa 35
ikizam@@ 35
izab@@ 35
urage 35
amya 35
erayo 35
imiti 34
afashe 34
amye 34
munini 34
gishobora 34
wandika 34
uba. 34
gic@@ 34
ebyiri 34
ushy@@ 34
ani. 34
kubintu 34
ahora 34
anyo 34
yagombaga 34
imara 34
biv@@ 34
bitandukanye 34
yobora 34
muby@@ 34
hana 34
kiri 34
koga 34
ibi. 34
amata 34
ezo 34
Iki 34
kwe 34
kugab@@ 34
kam@@ 34
apfuye 34
njye 34
akund@@ 34
njy@@ 34
azaba 34
Har@@ 34
ijyanye 34
arya 34
sina 34
Kig@@ 34
Itorero 34
icyubahiro 34
Nyamara 34
risto 34
eraho 34
Uwo 34
enera 34
eze. 33
ega 33
inyamakuru 33
Umuh@@ 33
is 33
Yat@@ 33
uranye 33
wah@@ 33
uhanda 33
ashob@@ 33
ibagirwe 33
udashobora 33
niyo 33
kuvuga. 33
wak@@ 33
uha@@ 33
ifuzo 33
arashaka 33
wib@@ 33
umaze 33
muz@@ 33
kumbwira 33
yash@@ 33
kamin@@ 33
inde 33
kingana 33
aniwe 33
Abag@@ 33
her@@ 33
irah@@ 33
itswe 33
ukwezi 33
nzira 33
Nkuko 33
kugerageza 33
ibindi 33
biri 33
ahari 33
kujyayo 33
uzwe 33
bwira 33
uva 33
on 33
urum@@ 33
Bit@@ 33
ombye 33
zahab@@ 33
nter@@ 33
mukobwa 33
Mubera 33
icyumweru 32
yang@@ 32
iter@@ 32
iringiro 32
acu. 32
ifata 32
upf@@ 32
akubwiye 32
kuruh@@ 32
Nti@@ 32
ekerezaga 32
agaragar@@ 32
akom@@ 32
isi. 32
to. 32
amuh@@ 32
bihagije 32
Yag@@ 32
ara. 32
Umwana 32
murug@@ 32
afat@@ 32
ze. 32
gutsinda 32
umuhanda 32
ucur@@ 32
gusohoka 32
Ntiy@@ 32
jyi 32
myaka 32
Umun@@ 32
ibar@@ 32
ke 32
ukira 32
ryo 32
akoz@@ 32
natwe 32
umusar@@ 32
abaho 32
nibyo 32
erako 32
nak@@ 32
arenze 32
agwa 32
irikare 32
yakora 32
eho. 32
ntazi 32
umvik@@ 32
emura 32
idikanya 32
orero 32
iyobyab@@ 32
aba@@ 32
mubuzima 32
amam@@ 32
iramo 32
iliya 32
isubizo 32
agoye 31
gusaba 31
gutanduk@@ 31
akundaga 31
unda 31
hirya 31
umuy@@ 31
utwara 31
apuro 31
Ntuz@@ 31
ikur@@ 31
kibazo. 31
abura 31
reka 31
ugiye 31
rik@@ 31
inyama 31
b'@@ 31
mwij@@ 31
ntuz@@ 31
innyi 31
Ikibazo 31
far@@ 31
nanjye 31
gukur@@ 31
Imp@@ 31
igi 31
kubaza 31
igifar@@ 31
kubit@@ 31
akoze. 31
makumyabiri 31
umva. 31
sinshobora 31
gutera 31
utaz@@ 31
inter@@ 31
gufasha 31
tu@@ 31
kun@@ 31
en 31
mash@@ 31
wanda 31
umuco 31
tu. 31
Ndakeka 31
wifuza 31
akaza 31
dukora 31
Uk@@ 31
umvikana 31
gak@@ 31
irimo 31
amazina 31
Ng@@ 31
uzug@@ 31
akurik@@ 31
egetsi 31
igishwa 31
imbuto 31
gas@@ 31
ishimo 31
ibyaha 31
abay@@ 31
ubusa 31
bashobora 31
imico 31
bishobora 31
ufi 31
byag@@ 31
rwe 30
ubutwari 30
indwi 30
ukwiye 30
oror@@ 30
Nigute 30
aku 30
ufat@@ 30
ukunzi 30
anj@@ 30
zanjye 30
nimugor@@ 30
acyari 30
enza 30
apu 30
mubir@@ 30
gah@@ 30
Nah@@ 30
amur@@ 30
indege 30
iyaga 30
ishaka. 30
cyawe 30
ingir@@ 30
eza. 30
anaga 30
wij@@ 30
rusange 30
itanu 30
shye 30
kurwanya 30
age 30
unze 30
le@@ 30
gutwara 30
shuri 30
tse 30
uzima 30
nyinshi. 30
ukunda. 30
iyo@@ 30
amug@@ 30
imo@@ 30
none 30
zari 30
ito 30
amu 30
os@@ 30
kubaho. 30
hose 30
ishikajwe 30
mukuru 30
hash@@ 30
amak@@ 30
cyanjye 30
ishimiye 30
nze 30
aricyo 30
ivugwa 30
ose. 30
k 30
igomba 30
ime 30
umeny@@ 30
afasha 30
ry'@@ 30
wiraga 30
oma. 30
atanga 30
kugir@@ 30
byo@@ 30
yasabye 30
twag@@ 30
Mwuka 30
atuma 30
kumwe 30
hat@@ 30
umutekano 30
wor@@ 30
kwe@@ 30
Kam@@ 30
bituma 30
Nyir@@ 30
Petero 30
urupfu 29
imi 29
umuna 29
ka@@ 29
ki 29
sitas@@ 29
viz@@ 29
ukiye 29
agas@@ 29
ryar@@ 29
rwose. 29
nkum@@ 29
nyir@@ 29
uyobozi 29
of@@ 29
umuriro 29
nah@@ 29
asi 29
ntuk@@ 29
ibaz@@ 29
Bib@@ 29
s 29
ukorera 29
urugero 29
ame 29
eli 29
nyamara 29
arwanda 29
nibwo 29
yiruko 29
wezi 29
ukundo 29
umerewe 29
pa 28
hej@@ 28
ohoka 28
Ing@@ 28
kuv@@ 28
intu. 28
buz@@ 28
ico 28
tu 28
ali 28
inyam@@ 28
ep@@ 28
Bur@@ 28
erusal@@ 28
run@@ 28
ema 28
in 27
anda. 27
ver@@ 27
weny@@ 27
umweru 27
amer@@ 27
pe@@ 27
tele@@ 27
so 27
wif@@ 27
aruka 27
araga 27
ben@@ 27
Is@@ 27
Kalisa 27
Sat@@ 27
Let@@ 27
esu 27
let@@ 26
abe 26
apo@@ 26
er 26
Ny@@ 26
Museveni 26
eno@@ 26
ereho 26
do 26
uri. 25
Sh@@ 25
rit@@ 25
inam@@ 25
be. 25
I 25
enn@@ 25
ekereza 25
azar@@ 25
uneka 24
per@@ 24
ekere@@ 24
wac@@ 24
Nku@@ 24
nda 24
le 24
ikoresho 24
yaha@@ 24
Bar@@ 24
pet@@ 24
fil@@ 24
ia 24
yob@@ 23
ul@@ 23
Tok@@ 23
ato 23
utsi 23
ake. 23
nas@@ 23
jyanye 23
amv@@ 23
am 23
irik@@ 23
el 23
anzu 23
ese 23
op@@ 23
one. 22
ice. 22
ter@@ 22
ro@@ 22
se? 22
swe 22
amvu 22
kid@@ 22
Z@@ 22
e; 22
s. 21
sa@@ 21
ufash@@ 21
uki 21
ca@@ 21
Kagame 21
imbo 21
Rug@@ 21
mit@@ 21
izam@@ 21
Nkusi. 21
ondo. 20
iya. 20
st@@ 20
John 20
res@@ 20
shi 20
Boston. 20
isub@@ 20
Boston 20
b 20
man@@ 20
Kal@@ 20
Rwanda. 20
eko 20
indura 19
mil@@ 19
Kan@@ 19
oba. 19
ch@@ 19
t 19
imba 19
p 19
irimbo 19
are. 19
anyi 19
od@@ 19
izere 19
jo@@ 19
Kar@@ 19
ic 19
et. 18
rap@@ 18
m 18
om. 18
polit@@ 18
sal@@ 18
doka 18
ishik@@ 18
ins@@ 18
Ind@@ 18
irwe 18
yarwanda 18
Nyam@@ 18
iru 18
bor@@ 17
imin@@ 17
ashoboka 17
w 17
ifar@@ 17
pol@@ 17
aso 17
co@@ 17
inyarwanda 17
Kizito 17
emezo 17
Mus@@ 17
lef@@ 16
ef@@ 16
ri@@ 16
Af@@ 16
ure. 16
ti@@ 16
lit@@ 16
picn@@ 16
cl@@ 16
ucuruzi 16
ubahiro 16
Kigali 16
side 16
tennis 15
ra@@ 15
angay@@ 15
pa@@ 15
ly 15
qu@@ 15
Boston? 15
unt@@ 15
abil@@ 15
acyo 15
e! 15
inc@@ 15
ace 15
son 14
ser@@ 14
eby@@ 14
ev@@ 14
etso 14
umwer@@ 14
do? 14
te 14
posit@@ 14
ingano 14
che@@ 14
han@@ 14
imeny@@ 14
lo@@ 14
iyumv@@ 14
obozi 14
no@@ 14
rwanda 14
es 13
Ch@@ 13
ew 13
Ho@@ 13
use 13
lis@@ 13
It@@ 13
Pol@@ 13
- 13
sinsh@@ 13
Al@@ 13
anc@@ 13
d 13
ibish@@ 13
ahab@@ 13
si@@ 13
wul@@ 13
An@@ 13
kwihang@@ 13
x@@ 13
giye 12
gar@@ 12
gomba 12
?@@ 12
ege 12
umutek@@ 12
amafar@@ 12
th@@ 12
into 12
wulo 12
anyuma 12
obora 12
li@@ 12
byukus@@ 12
l 11
div@@ 11
] 11
ome. 11
z 11
iring@@ 11
k. 11
tr@@ 11
for@@ 11
ick 11
Bo@@ 11
Mw@@ 11
sto@@ 11
je@@ 11
ce@@ 11
hav@@ 11
g 11
haf@@ 11
kirek@@ 10
pap@@ 10
tere@@ 10
[@@ 10
ru@@ 10
ere? 10
is. 10
ele@@ 10
fr@@ 10
Amer@@ 10
ire@@ 10
week@@ 10
mon@@ 10
uto 10
la@@ 10
f 10
ry 10
gif@@ 10
sib@@ 10
idik@@ 10
gir@@ 10
ck 10
tenn@@ 9
ukus@@ 9
c 9
adi@@ 9
di@@ 9
eth 9
riv@@ 9
end 9
akamar@@ 9
h 9
wis@@ 9
Kinyarwanda 9
car@@ 8
abo@@ 8
age. 8
ent@@ 8
ill@@ 8
re 8
pi@@ 8
pl@@ 8
ma@@ 8
tim@@ 8
ed@@ 8
0@@ 8
ue 8
pas@@ 8
al 8
!@@ 8
akosa 8
ombwa 8
ide@@ 8
ar 8
she 8
eh@@ 8
ster@@ 8
as 8
win@@ 8
ust@@ 8
wal@@ 8
ubera 8
ida 8
Wh@@ 8
pe 8
ou@@ 8
all 8
ase 8
hi@@ 8
ive 8
t. 7
po@@ 7
ukun@@ 7
umi 7
e-@@ 7
fun@@ 7
A 7
eget@@ 7
muc@@ 7
Ut@@ 7
V 7
ide 7
beg@@ 7
ans 7
ll@@ 7
ahud@@ 7
Be@@ 7
Fr@@ 7
phone 7
ball 7
uck@@ 7
est@@ 7
irya 7
Se@@ 7
mis@@ 7
ifuz@@ 7
uryo 7
unguro 7
abwo 7
pop@@ 7
it 7
x 7
care 7
ill 6
hig@@ 6
ic. 6
Mo@@ 6
ile 6
ter 6
all. 6
ci@@ 6
sp@@ 6
wer@@ 6
0 6
hon@@ 6
agac@@ 6
pro@@ 6
the@@ 6
dr@@ 6
don@@ 6
ook 6
ach@@ 6
sid@@ 6
U 6
oo@@ 6
hor@@ 6
me 6
cre@@ 6
sup@@ 6
cur@@ 5
ugor@@ 5
ex@@ 5
wim@@ 5
ade 5
1@@ 5
ath@@ 5
king 5
st 5
air@@ 5
ce 5
br@@ 5
zera 5
de@@ 5
man 5
r 5
des@@ 5
ing 5
O 5
him@@ 5
iyumvo 5
inyamas@@ 5
all@@ 5
ph@@ 5
ary 5
ong 5
con@@ 5
) 4
Je@@ 4
ay 4
on. 4
n. 4
No@@ 4
or 4
ers 4
S 4
fo@@ 4
il 4
ast 4
dy 4
Can@@ 4
wel@@ 4
:@@ 4
da@@ 4
dar@@ 4
ave 4
Ex@@ 4
ack 4
torero 4
;@@ 4
hote@@ 4
ah 4
sk@@ 4
Paul 4
ken 4
tom@@ 4
Sinsh@@ 4
were 4
cho@@ 4
duce 4
ess@@ 4
akeka 4
gam@@ 4
ty 4
fe@@ 4
tab@@ 4
the 4
liv@@ 4
elo@@ 4
ol 3
imbati 3
and 3
ith 3
Peter 3
us. 3
put@@ 3
id 3
vir@@ 3
% 3
ati@@ 3
en. 3
er. 3
wh@@ 3
uni@@ 3
tre@@ 3
sur@@ 3
D 3
Chris@@ 3
ent 3
sm@@ 3
var@@ 3
col@@ 3
ven 3
ity 3
wn 3
vis@@ 3
We 3
two 3
cc@@ 3
hel@@ 3
ir 3
prom@@ 3
..@@ 3
sat@@ 3
tal@@ 3
Kag@@ 3
str@@ 3
(@@ 3
ket 3
hur@@ 3
pr@@ 3
of 3
ld 3
hung@@ 3
ence 3
here 3
So 3
Tom@@ 3
ukara 3
foo@@ 3
sure 3
bus 3
ves 3
hum@@ 3
ery 3
cor@@ 3
ks 2
h. 2
ip 2
io@@ 2
ist 2
su@@ 2
by 2
sion 2
Joh@@ 2
ally 2
et 2
beh@@ 2
es? 2
y. 2
uburenganz@@ 2
stud@@ 2
kumyabiri 2
ds 2
even 2
ear@@ 2
tak@@ 2
Q@@ 2
The@@ 2
cap@@ 2
ad 2
ys 2
uth 2
obe@@ 2
eat@@ 2
ons 2
ord@@ 2
d. 2
les 2
hospit@@ 2
ilima 2
wer 2
pre@@ 2
tor@@ 2
wise 2
cont@@ 2
act 2
ul 2
oke 2
duc@@ 2
you 2
way 2
ke@@ 2
ment 2
sol@@ 2
Th@@ 2
cam@@ 2
gr@@ 2
cent 2
dev@@ 2
ain@@ 2
acc@@ 2
wr@@ 2
To@@ 2
l. 2
live 2
car 2
pres@@ 2
2@@ 2
nes@@ 2
comp@@ 2
wind@@ 2
ed 2
cr@@ 2
land 2
ation 2
very 2
give 2
time 2
going 2
um 2
N 2
sor@@ 2
market 2
The 2
aking 2
lead@@ 2
lie 2
sis@@ 2
al. 2
4@@ 2
cle@@ 2
ton@@ 2
ell 2
rem@@ 2
will 2
"@@ 1
" 1
Will 1
ers. 1
ws 1
lif@@ 1
clo@@ 1
ever@@ 1
id. 1
tat@@ 1
eter@@ 1
le. 1
int 1
water 1
ric@@ 1
3@@ 1
ta@@ 1
sel@@ 1
low@@ 1
espe@@ 1
hard 1
gro@@ 1
rep@@ 1
ort 1
Y 1
Museven@@ 1
rying 1
ath 1
ever 1
sil@@ 1
fel@@ 1
did@@ 1
ions 1
fi@@ 1
No 1
mid@@ 1
ful@@ 1
ion 1
angu@@ 1
big 1
gre@@ 1
ish 1
supp@@ 1
friend 1
inv@@ 1
us 1
_ 1
sho@@ 1
ion@@ 1
=@@ 1
ls 1
spit@@ 1
)@@ 1
vi@@ 1
Pr@@ 1
ement 1
ubureng@@ 1
pri@@ 1
cal@@ 1
dis@@ 1
day 1
ge@@ 1
add@@ 1
yabiri 1
ness 1
Wor@@ 1
es. 1
if 1
bl@@ 1
s? 1
some 1
jo 1
go. 1
cha@@ 1
Go@@ 1
there 1
God 1
kind@@ 1
his@@ 1
say@@ 1
United 1
Pe@@ 1
sev@@ 1
works 1
Mary 1
ch 1
tic@@ 1
ing. 1
night 1
ut 1
lat@@ 1
ward 1
Com@@ 1
Z 1
Pa@@ 1
Rwand@@ 1
pen@@ 1
B 1
fol@@ 1
char@@ 1
R 1
test@@ 1
aro@@ 1
6 1
hap@@ 1
Nig@@ 1
let 1
cul@@ 1
ry. 1
ings 1
rememb@@ 1
ering 1
what 1
happened 1
full 1
den@@ 1
nyi 1
lar@@ 1
can@@ 1
bad 1
hous@@ 1
place 1
beautiful 1
spe@@ 1
ont 1
back 1
day@@ 1
ild@@ 1
Pet@@ 1
leave 1
just 1
work 1
food 1
will@@ 1
kill@@ 1
E 1
is? 1
comm@@ 1
ents 1
ress 1
saf@@ 1
Kiz@@ 1
* 1
ates 1
att@@ 1
tell@@ 1
goo@@ 1
ant 1
or. 1
log@@ 1
ince 1
\@@ 1
tho@@ 1
sum@@ 1
joy 1
pic@@ 1
son@@ 1
aut@@ 1
met 1
ies. 1
chi@@ 1
\ 1
ss 1
ment@@ 1
my 1
ult 1
ll 1
dic@@ 1
win 1
ref@@ 1
rain@@ 1
P 1
les@@ 1
2 1
ung 1
ns 1
ste@@ 1
w. 1
ines 1
ain 1
fa@@ 1
val@@ 1
th 1
ek 1
on? 1
gn@@ 1
cro@@ 1
ood 1
orro@@ 1
ener@@ 1
exam@@ 1
nor@@ 1
tion 1
erus@@ 1
6@@ 1
8@@ 1